unsigned char model_tflite[] = {
  0x1c, 0x00, 0x00, 0x00, 0x54, 0x46, 0x4c, 0x33, 0x14, 0x00, 0x20, 0x00,
  0x1c, 0x00, 0x18, 0x00, 0x14, 0x00, 0x10, 0x00, 0x0c, 0x00, 0x00, 0x00,
  0x08, 0x00, 0x04, 0x00, 0x14, 0x00, 0x00, 0x00, 0x1c, 0x00, 0x00, 0x00,
  0x84, 0x00, 0x00, 0x00, 0xdc, 0x00, 0x00, 0x00, 0xfc, 0x06, 0x00, 0x00,
  0x0c, 0x07, 0x00, 0x00, 0xac, 0x0c, 0x00, 0x00, 0x03, 0x00, 0x00, 0x00,
  0x01, 0x00, 0x00, 0x00, 0x04, 0x00, 0x00, 0x00, 0xb6, 0xf8, 0xff, 0xff,
  0x0c, 0x00, 0x00, 0x00, 0x1c, 0x00, 0x00, 0x00, 0x38, 0x00, 0x00, 0x00,
  0x0f, 0x00, 0x00, 0x00, 0x73, 0x65, 0x72, 0x76, 0x69, 0x6e, 0x67, 0x5f,
  0x64, 0x65, 0x66, 0x61, 0x75, 0x6c, 0x74, 0x00, 0x01, 0x00, 0x00, 0x00,
  0x04, 0x00, 0x00, 0x00, 0x98, 0xff, 0xff, 0xff, 0x0a, 0x00, 0x00, 0x00,
  0x04, 0x00, 0x00, 0x00, 0x07, 0x00, 0x00, 0x00, 0x64, 0x65, 0x6e, 0x73,
  0x65, 0x5f, 0x32, 0x00, 0x01, 0x00, 0x00, 0x00, 0x04, 0x00, 0x00, 0x00,
  0xa2, 0xf9, 0xff, 0xff, 0x04, 0x00, 0x00, 0x00, 0x0b, 0x00, 0x00, 0x00,
  0x64, 0x65, 0x6e, 0x73, 0x65, 0x5f, 0x69, 0x6e, 0x70, 0x75, 0x74, 0x00,
  0x02, 0x00, 0x00, 0x00, 0x34, 0x00, 0x00, 0x00, 0x04, 0x00, 0x00, 0x00,
  0xdc, 0xff, 0xff, 0xff, 0x0d, 0x00, 0x00, 0x00, 0x04, 0x00, 0x00, 0x00,
  0x13, 0x00, 0x00, 0x00, 0x43, 0x4f, 0x4e, 0x56, 0x45, 0x52, 0x53, 0x49,
  0x4f, 0x4e, 0x5f, 0x4d, 0x45, 0x54, 0x41, 0x44, 0x41, 0x54, 0x41, 0x00,
  0x08, 0x00, 0x0c, 0x00, 0x08, 0x00, 0x04, 0x00, 0x08, 0x00, 0x00, 0x00,
  0x0c, 0x00, 0x00, 0x00, 0x04, 0x00, 0x00, 0x00, 0x13, 0x00, 0x00, 0x00,
  0x6d, 0x69, 0x6e, 0x5f, 0x72, 0x75, 0x6e, 0x74, 0x69, 0x6d, 0x65, 0x5f,
  0x76, 0x65, 0x72, 0x73, 0x69, 0x6f, 0x6e, 0x00, 0x0e, 0x00, 0x00, 0x00,
  0x1c, 0x06, 0x00, 0x00, 0x14, 0x06, 0x00, 0x00, 0xe4, 0x05, 0x00, 0x00,
  0xc8, 0x05, 0x00, 0x00, 0x78, 0x05, 0x00, 0x00, 0xe8, 0x02, 0x00, 0x00,
  0xd8, 0x00, 0x00, 0x00, 0xa8, 0x00, 0x00, 0x00, 0xa0, 0x00, 0x00, 0x00,
  0x98, 0x00, 0x00, 0x00, 0x90, 0x00, 0x00, 0x00, 0x88, 0x00, 0x00, 0x00,
  0x68, 0x00, 0x00, 0x00, 0x04, 0x00, 0x00, 0x00, 0x52, 0xfa, 0xff, 0xff,
  0x04, 0x00, 0x00, 0x00, 0x54, 0x00, 0x00, 0x00, 0x0c, 0x00, 0x00, 0x00,
  0x08, 0x00, 0x0e, 0x00, 0x08, 0x00, 0x04, 0x00, 0x08, 0x00, 0x00, 0x00,
  0x10, 0x00, 0x00, 0x00, 0x24, 0x00, 0x00, 0x00, 0x00, 0x00, 0x06, 0x00,
  0x08, 0x00, 0x04, 0x00, 0x06, 0x00, 0x00, 0x00, 0x04, 0x00, 0x00, 0x00,
  0x00, 0x00, 0x00, 0x00, 0x00, 0x00, 0x0a, 0x00, 0x10, 0x00, 0x0c, 0x00,
  0x08, 0x00, 0x04, 0x00, 0x0a, 0x00, 0x00, 0x00, 0x02, 0x00, 0x00, 0x00,
  0x02, 0x00, 0x00, 0x00, 0x04, 0x00, 0x00, 0x00, 0x06, 0x00, 0x00, 0x00,
  0x32, 0x2e, 0x31, 0x34, 0x2e, 0x30, 0x00, 0x00, 0xb2, 0xfa, 0xff, 0xff,
  0x04, 0x00, 0x00, 0x00, 0x10, 0x00, 0x00, 0x00, 0x31, 0x2e, 0x31, 0x34,
  0x2e, 0x30, 0x00, 0x00, 0x00, 0x00, 0x00, 0x00, 0x00, 0x00, 0x00, 0x00,
  0x14, 0xf5, 0xff, 0xff, 0x18, 0xf5, 0xff, 0xff, 0x1c, 0xf5, 0xff, 0xff,
  0x20, 0xf5, 0xff, 0xff, 0xde, 0xfa, 0xff, 0xff, 0x04, 0x00, 0x00, 0x00,
  0x20, 0x00, 0x00, 0x00, 0x77, 0xdc, 0xce, 0x3f, 0x19, 0x15, 0xda, 0xbf,
  0x14, 0xaf, 0xb9, 0x3f, 0x17, 0xa8, 0xc6, 0x3f, 0xa2, 0xb7, 0xd9, 0xbf,
  0xf7, 0x1b, 0x38, 0x40, 0x71, 0xcf, 0x4e, 0x3f, 0x00, 0x0a, 0x04, 0xbf,
  0x0a, 0xfb, 0xff, 0xff, 0x04, 0x00, 0x00, 0x00, 0x00, 0x02, 0x00, 0x00,
  0x0f, 0xbb, 0xec, 0x3f, 0x08, 0x6f, 0x9a, 0x3f, 0x57, 0x31, 0x91, 0xbc,
  0xe0, 0x5f, 0xdd, 0x3e, 0x8e, 0x6f, 0xf4, 0x3f, 0x24, 0xb3, 0xbd, 0x3e,
  0x1e, 0x4b, 0xdd, 0x3f, 0x28, 0xc2, 0x12, 0xbd, 0x82, 0x74, 0xb4, 0x3f,
  0xb4, 0xfe, 0xba, 0xbd, 0x2c, 0x0a, 0xec, 0xbd, 0x87, 0x34, 0x29, 0x3f,
  0xc4, 0x95, 0xad, 0x3e, 0xb3, 0xad, 0xb2, 0xbe, 0x44, 0x87, 0x97, 0x3d,
  0x7b, 0x5e, 0xe1, 0x3f, 0xca, 0x06, 0x08, 0xc0, 0x30, 0xff, 0xd1, 0xbf,
  0xa5, 0xb8, 0x34, 0x3f, 0x10, 0xf1, 0xa5, 0x3e, 0xa4, 0x77, 0xe0, 0xbf,
  0xe4, 0x38, 0xc1, 0x3e, 0x1b, 0x8f, 0xe0, 0xbf, 0x56, 0x6c, 0x36, 0x3f,
  0x55, 0xd7, 0xbc, 0xbf, 0x8f, 0x44, 0x1f, 0xbe, 0xad, 0x82, 0xc3, 0x3e,
  0xad, 0xea, 0x30, 0xbe, 0x00, 0xf2, 0xf4, 0xbe, 0x51, 0xc8, 0xfc, 0x3e,
  0xc5, 0xf3, 0x5c, 0x3e, 0xa9, 0x83, 0xfc, 0xbf, 0xc6, 0x56, 0x02, 0x40,
  0xfc, 0xa1, 0x9b, 0x3f, 0x21, 0x38, 0x2e, 0x3e, 0x80, 0x72, 0x46, 0xbe,
  0xaf, 0xcf, 0xd8, 0x3f, 0x18, 0x13, 0xf2, 0x3e, 0xa7, 0xd3, 0xd7, 0x3f,
  0x3e, 0x1f, 0xbc, 0xbd, 0xd5, 0x6b, 0xdf, 0x3f, 0x81, 0xde, 0x81, 0x3e,
  0xac, 0xd1, 0xd3, 0x3d, 0x15, 0xb5, 0xb5, 0xbd, 0x10, 0x54, 0x91, 0xbe,
  0xe7, 0xa8, 0x4c, 0xbe, 0xdc, 0x02, 0xe5, 0xbe, 0x1a, 0x99, 0xd7, 0x3f,
  0x2e, 0xe8, 0x02, 0x40, 0x13, 0xa0, 0x8f, 0x3f, 0x72, 0xf7, 0x9a, 0xbe,
  0x80, 0x0e, 0x80, 0x3c, 0x85, 0x55, 0xca, 0x3f, 0xb4, 0x57, 0xdc, 0xbe,
  0x31, 0xbf, 0xc6, 0x3f, 0x7c, 0x1d, 0x30, 0x3e, 0xab, 0xb5, 0x91, 0x3f,
  0x73, 0xa7, 0x0d, 0x3e, 0xde, 0x08, 0x00, 0xbe, 0x74, 0xc6, 0x52, 0x3e,
  0x20, 0x2f, 0x2e, 0x3d, 0xd0, 0x96, 0x84, 0x3c, 0x88, 0x7c, 0xaa, 0x3e,
  0xd9, 0xa4, 0x2a, 0x3f, 0x02, 0x14, 0x29, 0xc0, 0xef, 0xc7, 0xa4, 0xbf,
  0x0c, 0x81, 0xa0, 0xbd, 0x80, 0x04, 0xe7, 0xbe, 0xa2, 0x23, 0x02, 0xc0,
  0x00, 0x17, 0xdc, 0xbc, 0xe1, 0x55, 0xde, 0xbf, 0xf1, 0x09, 0x22, 0x3e,
  0xf3, 0xa4, 0x10, 0xc0, 0xcb, 0xd4, 0x8f, 0x3e, 0x2a, 0xa7, 0x20, 0x3f,
  0x8e, 0x92, 0xa9, 0x3e, 0xec, 0x52, 0xf9, 0x3e, 0xc9, 0xfb, 0xe0, 0xbb,
  0xa2, 0xb9, 0x2c, 0xbd, 0x83, 0x55, 0xfc, 0xbf, 0xeb, 0xdf, 0x0d, 0x40,
  0x1e, 0x3c, 0x92, 0x3f, 0xca, 0xc1, 0x8d, 0x3e, 0x00, 0xcd, 0xe0, 0xbb,
  0xde, 0xee, 0x83, 0x3f, 0x40, 0x23, 0xfe, 0x3d, 0xf6, 0x24, 0x64, 0x3f,
  0x5c, 0x52, 0x6e, 0x3e, 0xac, 0xa3, 0xdd, 0x3f, 0x73, 0xb2, 0x26, 0xbf,
  0xeb, 0xbf, 0x8b, 0x3e, 0x8b, 0x56, 0x47, 0x3f, 0xe0, 0x5b, 0xc5, 0x3d,
  0x4c, 0xc0, 0xd7, 0x3d, 0xc0, 0x67, 0x5f, 0xbf, 0x41, 0x01, 0x8a, 0x3f,
  0x86, 0x3e, 0xe0, 0x3d, 0x23, 0x5d, 0xa0, 0x3c, 0xcc, 0x00, 0xf6, 0xbd,
  0x20, 0xa2, 0x5e, 0x3d, 0xe1, 0x59, 0x89, 0x3e, 0x4c, 0x13, 0xab, 0x3e,
  0x4e, 0x02, 0xe5, 0xbe, 0x6c, 0x6a, 0xec, 0xbe, 0xec, 0x0a, 0x99, 0xbe,
  0xc7, 0x62, 0x10, 0xbe, 0x76, 0xb7, 0xb1, 0xbb, 0x99, 0x8f, 0xfe, 0xbe,
  0xe0, 0x01, 0xfe, 0xbd, 0xb6, 0x56, 0xca, 0x3e, 0x9b, 0x95, 0x2a, 0x3d,
  0xa4, 0x51, 0xac, 0xbe, 0x29, 0x2e, 0xe2, 0x3d, 0xd6, 0x16, 0xf0, 0xbe,
  0xc9, 0xe6, 0x80, 0xbe, 0xb8, 0xc3, 0x7d, 0x3e, 0x46, 0x6e, 0xa5, 0xbd,
  0xb0, 0x5e, 0xa6, 0xbd, 0xbe, 0x11, 0xaa, 0xbe, 0x03, 0x54, 0x83, 0xbd,
  0x2f, 0x0f, 0xb2, 0xbe, 0xb8, 0x44, 0x0e, 0xbf, 0x64, 0xb0, 0xcc, 0x3e,
  0x09, 0xfe, 0xc7, 0xbe, 0xb8, 0x30, 0x88, 0xbe, 0x29, 0x2c, 0xa4, 0x3e,
  0x0e, 0x4d, 0x40, 0xbe, 0xd1, 0x7f, 0xce, 0x3d, 0x16, 0xfd, 0xff, 0xff,
  0x04, 0x00, 0x00, 0x00, 0x80, 0x02, 0x00, 0x00, 0xf2, 0xfd, 0x47, 0xbe,
  0x9c, 0xe8, 0xd0, 0x3e, 0x24, 0xfd, 0x73, 0xbd, 0x91, 0x29, 0xce, 0xbd,
  0x17, 0x78, 0x25, 0x3d, 0x64, 0xa2, 0xa8, 0x3e, 0x40, 0x01, 0x1f, 0xbf,
  0xaf, 0x5f, 0x18, 0x3f, 0x1e, 0x67, 0x04, 0xbf, 0xd8, 0x2a, 0x17, 0x3e,
  0x73, 0x39, 0x49, 0xbd, 0xe0, 0x54, 0x06, 0xbf, 0xb1, 0xb1, 0x25, 0x3f,
  0xb1, 0xe1, 0x47, 0xbf, 0x6d, 0x07, 0x20, 0x3f, 0xb4, 0x56, 0x1e, 0xbe,
  0x62, 0xe1, 0x13, 0xbe, 0x38, 0xb9, 0xd3, 0x3e, 0x7a, 0x9e, 0x9f, 0x3e,
  0x0c, 0xd2, 0xc6, 0xbe, 0x2a, 0xbc, 0x1e, 0xbe, 0xb2, 0x49, 0xc2, 0x3d,
  0xd0, 0xac, 0x3f, 0x3f, 0x15, 0x0a, 0x83, 0x3e, 0xdc, 0x2d, 0xdb, 0x3e,
  0xc9, 0x09, 0x2a, 0x3e, 0xdf, 0x29, 0x0d, 0x3f, 0x96, 0x52, 0x25, 0x3e,
  0x0e, 0xeb, 0xf0, 0xbc, 0x5b, 0x03, 0x49, 0xbd, 0x60, 0x5f, 0xe3, 0xbe,
  0xfc, 0xed, 0x0e, 0xbe, 0x68, 0x87, 0x2d, 0xbe, 0x70, 0xfd, 0xcb, 0xbe,
  0xc6, 0xe5, 0xa1, 0xbe, 0x88, 0xf8, 0xaf, 0xbe, 0x68, 0xe2, 0x3b, 0x3e,
  0x90, 0xeb, 0xc3, 0x3e, 0xd7, 0x6e, 0xc9, 0xbe, 0xc3, 0xa8, 0xa2, 0xbe,
  0x19, 0xe2, 0x0a, 0x3f, 0xef, 0x31, 0x51, 0xbf, 0x92, 0xb4, 0xdb, 0x3e,
  0x31, 0xdc, 0x05, 0x3f, 0xe1, 0x3c, 0xe6, 0xbe, 0xc0, 0xe0, 0x9b, 0xbd,
  0xb1, 0x3e, 0x61, 0x3e, 0xec, 0x94, 0xb2, 0xbe, 0xe1, 0xaa, 0x2e, 0xbd,
  0xc4, 0x09, 0x18, 0x3d, 0xca, 0x55, 0x9d, 0xbe, 0xc6, 0x66, 0x64, 0xbe,
  0x88, 0x1c, 0x3a, 0xbe, 0x03, 0x71, 0x70, 0xbe, 0x42, 0x7f, 0x84, 0xbe,
  0x00, 0x74, 0x47, 0x3e, 0xc0, 0xaf, 0xb4, 0x3d, 0x18, 0x79, 0xb4, 0xbd,
  0x40, 0x19, 0x91, 0xbe, 0x74, 0xfc, 0x82, 0xbd, 0x51, 0x0e, 0x8d, 0xbe,
  0xfe, 0xb5, 0xde, 0x3d, 0xd9, 0x03, 0x0d, 0xbf, 0x1b, 0x6a, 0xf1, 0x3e,
  0xfc, 0x15, 0x40, 0xbf, 0x42, 0x27, 0x16, 0x3f, 0x2d, 0xce, 0x30, 0x3e,
  0xa6, 0xa2, 0xe6, 0x3d, 0x58, 0x03, 0xd4, 0xbd, 0xf2, 0x1f, 0x55, 0x3e,
  0x1a, 0xea, 0x47, 0x3e, 0x0c, 0xa3, 0xac, 0xbe, 0xae, 0xb8, 0xcc, 0x3e,
  0x7b, 0x15, 0x9b, 0x3e, 0x5e, 0xc4, 0x10, 0x3f, 0x29, 0x8e, 0xf7, 0xbd,
  0x8e, 0x38, 0x8c, 0x3e, 0x60, 0xc8, 0x71, 0xbd, 0xd8, 0x65, 0x9a, 0xbd,
  0x8a, 0xfa, 0x1b, 0x3f, 0x83, 0x46, 0xff, 0x3e, 0x88, 0x22, 0xb7, 0xbe,
  0x75, 0x7d, 0xeb, 0x3e, 0x0e, 0xd6, 0x6a, 0xbf, 0x4b, 0xbc, 0x92, 0x3e,
  0x22, 0x10, 0x57, 0x3c, 0xc7, 0xd9, 0xac, 0x3e, 0x98, 0xa0, 0x0b, 0xbf,
  0xbe, 0x08, 0xb0, 0xbd, 0x51, 0xc2, 0xaf, 0x3e, 0x77, 0x22, 0xb7, 0x3e,
  0xfb, 0xf2, 0x19, 0x3e, 0xf8, 0x52, 0x1b, 0x3f, 0x8e, 0x86, 0xf0, 0xbe,
  0x5f, 0x7c, 0xa1, 0xbe, 0xe3, 0x8b, 0x26, 0xbc, 0x71, 0x63, 0x03, 0xbf,
  0x15, 0x8d, 0xfa, 0xbd, 0xd6, 0x8b, 0xa8, 0x3e, 0xec, 0x6f, 0xd6, 0x3d,
  0x8f, 0xc2, 0xd9, 0xbc, 0xef, 0x3a, 0x32, 0xbe, 0x45, 0xff, 0x1a, 0x3f,
  0x22, 0xbc, 0x63, 0x3d, 0xc7, 0x59, 0x11, 0x3f, 0xbd, 0x20, 0x11, 0xbe,
  0xef, 0x93, 0xa9, 0xbe, 0xcf, 0x70, 0x10, 0x3e, 0xc8, 0xeb, 0x90, 0x3e,
  0x64, 0x38, 0xfd, 0x3e, 0xe5, 0x89, 0x88, 0xbd, 0xb6, 0x20, 0x24, 0x3f,
  0x44, 0x7f, 0x8b, 0xbe, 0x29, 0xbc, 0xa6, 0x3e, 0x11, 0xed, 0xa8, 0x3d,
  0xe7, 0xd6, 0x4f, 0x3d, 0x03, 0x39, 0x9a, 0xbd, 0x50, 0x28, 0xdf, 0x3e,
  0x42, 0x51, 0xf4, 0xbc, 0x4e, 0xa5, 0xe8, 0x3e, 0x43, 0x4d, 0xb8, 0xbe,
  0x14, 0x91, 0x31, 0x3e, 0xa4, 0xc8, 0x55, 0x3e, 0x08, 0x9f, 0x31, 0xbe,
  0xea, 0xa1, 0x3d, 0xbe, 0x5e, 0x38, 0x34, 0xbe, 0x5e, 0x4f, 0x2a, 0xbe,
  0x48, 0xec, 0xb7, 0x3d, 0xec, 0xa7, 0x8d, 0xbd, 0xf4, 0xf6, 0xc7, 0xbe,
  0xbc, 0xb1, 0x16, 0xbe, 0x8b, 0xd1, 0x84, 0xbd, 0x96, 0xbf, 0x46, 0x3f,
  0x06, 0xc3, 0x08, 0x3f, 0x5b, 0x9b, 0x06, 0x3d, 0x86, 0x28, 0x51, 0x3d,
  0xc5, 0x95, 0xa2, 0xbe, 0x4b, 0xc0, 0xb9, 0x3e, 0x26, 0xd3, 0x98, 0x3e,
  0x63, 0x1f, 0xb6, 0x3d, 0xc4, 0x03, 0x38, 0x3e, 0xb2, 0x64, 0x35, 0xbf,
  0x91, 0x93, 0xfd, 0x3e, 0x8e, 0x81, 0x1e, 0xbe, 0xd1, 0xbe, 0xd2, 0xbe,
  0x45, 0xb2, 0x02, 0x3f, 0x1d, 0x36, 0xe8, 0x3d, 0xaf, 0x7a, 0xf9, 0xbd,
  0x30, 0xfa, 0xa8, 0x3e, 0xd8, 0xcc, 0xa3, 0x3e, 0x56, 0x91, 0x3a, 0xbe,
  0x5c, 0xb5, 0x91, 0x3e, 0xa4, 0xf0, 0x1b, 0xbe, 0x10, 0xd6, 0xa0, 0x3e,
  0x98, 0xe5, 0xf6, 0x3d, 0x46, 0x47, 0x46, 0xbf, 0xdb, 0x3e, 0x1f, 0x3e,
  0x9d, 0x22, 0x11, 0xbf, 0xe2, 0x51, 0x2c, 0x3f, 0x34, 0x26, 0x11, 0xbd,
  0xa2, 0xff, 0xff, 0xff, 0x04, 0x00, 0x00, 0x00, 0x40, 0x00, 0x00, 0x00,
  0xc1, 0x55, 0x09, 0xbc, 0xc4, 0xb0, 0xb6, 0x3b, 0x67, 0xa3, 0x22, 0xbe,
  0x00, 0x00, 0x00, 0x00, 0xcf, 0x7b, 0x29, 0x3c, 0x00, 0x00, 0x00, 0x00,
  0x15, 0x5c, 0xa2, 0x3c, 0x60, 0x18, 0x57, 0xbe, 0x89, 0x45, 0xbd, 0xbc,
  0x6b, 0x99, 0xca, 0x3e, 0x32, 0x10, 0x3d, 0xbe, 0xc5, 0xf7, 0x2a, 0xbf,
  0x00, 0x00, 0x00, 0x00, 0xed, 0x44, 0x50, 0xbe, 0x4a, 0x52, 0x8f, 0x3e,
  0x55, 0x37, 0xc6, 0x3d, 0xee, 0xff, 0xff, 0xff, 0x04, 0x00, 0x00, 0x00,
  0x04, 0x00, 0x00, 0x00, 0x78, 0x1a, 0xbe, 0xbd, 0x00, 0x00, 0x06, 0x00,
  0x08, 0x00, 0x04, 0x00, 0x06, 0x00, 0x00, 0x00, 0x04, 0x00, 0x00, 0x00,
  0x20, 0x00, 0x00, 0x00, 0x32, 0x54, 0x2b, 0x3e, 0xb2, 0xde, 0x7c, 0xbc,
  0xc1, 0x07, 0x3e, 0x3e, 0x6b, 0x8a, 0xb6, 0xbd, 0x55, 0x2a, 0xd8, 0xbc,
  0x77, 0x9a, 0x96, 0xbe, 0x3c, 0xb9, 0x61, 0xbc, 0x7b, 0xdd, 0xb2, 0xbd,
  0x78, 0xfa, 0xff, 0xff, 0x7c, 0xfa, 0xff, 0xff, 0x0f, 0x00, 0x00, 0x00,
  0x4d, 0x4c, 0x49, 0x52, 0x20, 0x43, 0x6f, 0x6e, 0x76, 0x65, 0x72, 0x74,
  0x65, 0x64, 0x2e, 0x00, 0x01, 0x00, 0x00, 0x00, 0x14, 0x00, 0x00, 0x00,
  0x00, 0x00, 0x0e, 0x00, 0x18, 0x00, 0x14, 0x00, 0x10, 0x00, 0x0c, 0x00,
  0x08, 0x00, 0x04, 0x00, 0x0e, 0x00, 0x00, 0x00, 0x14, 0x00, 0x00, 0x00,
  0x1c, 0x00, 0x00, 0x00, 0x08, 0x01, 0x00, 0x00, 0x0c, 0x01, 0x00, 0x00,
  0x10, 0x01, 0x00, 0x00, 0x04, 0x00, 0x00, 0x00, 0x6d, 0x61, 0x69, 0x6e,
  0x00, 0x00, 0x00, 0x00, 0x04, 0x00, 0x00, 0x00, 0xb0, 0x00, 0x00, 0x00,
  0x68, 0x00, 0x00, 0x00, 0x34, 0x00, 0x00, 0x00, 0x10, 0x00, 0x00, 0x00,
  0x00, 0x00, 0x0a, 0x00, 0x10, 0x00, 0x0c, 0x00, 0x08, 0x00, 0x04, 0x00,
  0x0a, 0x00, 0x00, 0x00, 0x0c, 0x00, 0x00, 0x00, 0x10, 0x00, 0x00, 0x00,
  0x01, 0x00, 0x00, 0x00, 0x01, 0x00, 0x00, 0x00, 0x0a, 0x00, 0x00, 0x00,
  0x01, 0x00, 0x00, 0x00, 0x09, 0x00, 0x00, 0x00, 0x9a, 0xff, 0xff, 0xff,
  0x10, 0x00, 0x00, 0x00, 0x00, 0x00, 0x00, 0x08, 0x0c, 0x00, 0x00, 0x00,
  0x10, 0x00, 0x00, 0x00, 0x24, 0xfb, 0xff, 0xff, 0x01, 0x00, 0x00, 0x00,
  0x09, 0x00, 0x00, 0x00, 0x03, 0x00, 0x00, 0x00, 0x08, 0x00, 0x00, 0x00,
  0x06, 0x00, 0x00, 0x00, 0x02, 0x00, 0x00, 0x00, 0xca, 0xff, 0xff, 0xff,
  0x10, 0x00, 0x00, 0x00, 0x00, 0x00, 0x00, 0x08, 0x10, 0x00, 0x00, 0x00,
  0x14, 0x00, 0x00, 0x00, 0xba, 0xff, 0xff, 0xff, 0x00, 0x00, 0x00, 0x01,
  0x01, 0x00, 0x00, 0x00, 0x08, 0x00, 0x00, 0x00, 0x03, 0x00, 0x00, 0x00,
  0x07, 0x00, 0x00, 0x00, 0x05, 0x00, 0x00, 0x00, 0x01, 0x00, 0x00, 0x00,
  0x00, 0x00, 0x0e, 0x00, 0x16, 0x00, 0x00, 0x00, 0x10, 0x00, 0x0c, 0x00,
  0x0b, 0x00, 0x04, 0x00, 0x0e, 0x00, 0x00, 0x00, 0x18, 0x00, 0x00, 0x00,
  0x00, 0x00, 0x00, 0x08, 0x18, 0x00, 0x00, 0x00, 0x1c, 0x00, 0x00, 0x00,
  0x00, 0x00, 0x06, 0x00, 0x08, 0x00, 0x07, 0x00, 0x06, 0x00, 0x00, 0x00,
  0x00, 0x00, 0x00, 0x01, 0x01, 0x00, 0x00, 0x00, 0x07, 0x00, 0x00, 0x00,
  0x03, 0x00, 0x00, 0x00, 0x00, 0x00, 0x00, 0x00, 0x04, 0x00, 0x00, 0x00,
  0x03, 0x00, 0x00, 0x00, 0x01, 0x00, 0x00, 0x00, 0x0a, 0x00, 0x00, 0x00,
  0x01, 0x00, 0x00, 0x00, 0x00, 0x00, 0x00, 0x00, 0x0b, 0x00, 0x00, 0x00,
  0x04, 0x04, 0x00, 0x00, 0x94, 0x03, 0x00, 0x00, 0x24, 0x03, 0x00, 0x00,
  0xd0, 0x02, 0x00, 0x00, 0x88, 0x02, 0x00, 0x00, 0x3c, 0x02, 0x00, 0x00,
  0xf0, 0x01, 0x00, 0x00, 0x68, 0x01, 0x00, 0x00, 0xd8, 0x00, 0x00, 0x00,
  0x60, 0x00, 0x00, 0x00, 0x04, 0x00, 0x00, 0x00, 0x3e, 0xfc, 0xff, 0xff,
  0x00, 0x00, 0x00, 0x01, 0x14, 0x00, 0x00, 0x00, 0x1c, 0x00, 0x00, 0x00,
  0x1c, 0x00, 0x00, 0x00, 0x0b, 0x00, 0x00, 0x00, 0x34, 0x00, 0x00, 0x00,
  0x02, 0x00, 0x00, 0x00, 0xff, 0xff, 0xff, 0xff, 0x01, 0x00, 0x00, 0x00,
  0x28, 0xfc, 0xff, 0xff, 0x19, 0x00, 0x00, 0x00, 0x53, 0x74, 0x61, 0x74,
  0x65, 0x66, 0x75, 0x6c, 0x50, 0x61, 0x72, 0x74, 0x69, 0x74, 0x69, 0x6f,
  0x6e, 0x65, 0x64, 0x43, 0x61, 0x6c, 0x6c, 0x3a, 0x30, 0x00, 0x00, 0x00,
  0x02, 0x00, 0x00, 0x00, 0x01, 0x00, 0x00, 0x00, 0x01, 0x00, 0x00, 0x00,
  0x96, 0xfc, 0xff, 0xff, 0x00, 0x00, 0x00, 0x01, 0x14, 0x00, 0x00, 0x00,
  0x1c, 0x00, 0x00, 0x00, 0x1c, 0x00, 0x00, 0x00, 0x0a, 0x00, 0x00, 0x00,
  0x50, 0x00, 0x00, 0x00, 0x02, 0x00, 0x00, 0x00, 0xff, 0xff, 0xff, 0xff,
  0x01, 0x00, 0x00, 0x00, 0x80, 0xfc, 0xff, 0xff, 0x34, 0x00, 0x00, 0x00,
  0x73, 0x65, 0x71, 0x75, 0x65, 0x6e, 0x74, 0x69, 0x61, 0x6c, 0x2f, 0x64,
  0x65, 0x6e, 0x73, 0x65, 0x5f, 0x32, 0x2f, 0x4d, 0x61, 0x74, 0x4d, 0x75,
  0x6c, 0x3b, 0x73, 0x65, 0x71, 0x75, 0x65, 0x6e, 0x74, 0x69, 0x61, 0x6c,
  0x2f, 0x64, 0x65, 0x6e, 0x73, 0x65, 0x5f, 0x32, 0x2f, 0x42, 0x69, 0x61,
  0x73, 0x41, 0x64, 0x64, 0x00, 0x00, 0x00, 0x00, 0x02, 0x00, 0x00, 0x00,
  0x01, 0x00, 0x00, 0x00, 0x01, 0x00, 0x00, 0x00, 0x0a, 0xfd, 0xff, 0xff,
  0x00, 0x00, 0x00, 0x01, 0x14, 0x00, 0x00, 0x00, 0x1c, 0x00, 0x00, 0x00,
  0x1c, 0x00, 0x00, 0x00, 0x09, 0x00, 0x00, 0x00, 0x68, 0x00, 0x00, 0x00,
  0x02, 0x00, 0x00, 0x00, 0xff, 0xff, 0xff, 0xff, 0x08, 0x00, 0x00, 0x00,
  0xf4, 0xfc, 0xff, 0xff, 0x4c, 0x00, 0x00, 0x00, 0x73, 0x65, 0x71, 0x75,
  0x65, 0x6e, 0x74, 0x69, 0x61, 0x6c, 0x2f, 0x64, 0x65, 0x6e, 0x73, 0x65,
  0x5f, 0x31, 0x2f, 0x4d, 0x61, 0x74, 0x4d, 0x75, 0x6c, 0x3b, 0x73, 0x65,
  0x71, 0x75, 0x65, 0x6e, 0x74, 0x69, 0x61, 0x6c, 0x2f, 0x64, 0x65, 0x6e,
  0x73, 0x65, 0x5f, 0x31, 0x2f, 0x52, 0x65, 0x6c, 0x75, 0x3b, 0x73, 0x65,
  0x71, 0x75, 0x65, 0x6e, 0x74, 0x69, 0x61, 0x6c, 0x2f, 0x64, 0x65, 0x6e,
  0x73, 0x65, 0x5f, 0x31, 0x2f, 0x42, 0x69, 0x61, 0x73, 0x41, 0x64, 0x64,
  0x00, 0x00, 0x00, 0x00, 0x02, 0x00, 0x00, 0x00, 0x01, 0x00, 0x00, 0x00,
  0x08, 0x00, 0x00, 0x00, 0x96, 0xfd, 0xff, 0xff, 0x00, 0x00, 0x00, 0x01,
  0x14, 0x00, 0x00, 0x00, 0x1c, 0x00, 0x00, 0x00, 0x1c, 0x00, 0x00, 0x00,
  0x08, 0x00, 0x00, 0x00, 0x60, 0x00, 0x00, 0x00, 0x02, 0x00, 0x00, 0x00,
  0xff, 0xff, 0xff, 0xff, 0x10, 0x00, 0x00, 0x00, 0x80, 0xfd, 0xff, 0xff,
  0x46, 0x00, 0x00, 0x00, 0x73, 0x65, 0x71, 0x75, 0x65, 0x6e, 0x74, 0x69,
  0x61, 0x6c, 0x2f, 0x64, 0x65, 0x6e, 0x73, 0x65, 0x2f, 0x4d, 0x61, 0x74,
  0x4d, 0x75, 0x6c, 0x3b, 0x73, 0x65, 0x71, 0x75, 0x65, 0x6e, 0x74, 0x69,
  0x61, 0x6c, 0x2f, 0x64, 0x65, 0x6e, 0x73, 0x65, 0x2f, 0x52, 0x65, 0x6c,
  0x75, 0x3b, 0x73, 0x65, 0x71, 0x75, 0x65, 0x6e, 0x74, 0x69, 0x61, 0x6c,
  0x2f, 0x64, 0x65, 0x6e, 0x73, 0x65, 0x2f, 0x42, 0x69, 0x61, 0x73, 0x41,
  0x64, 0x64, 0x00, 0x00, 0x02, 0x00, 0x00, 0x00, 0x01, 0x00, 0x00, 0x00,
  0x10, 0x00, 0x00, 0x00, 0x86, 0xfe, 0xff, 0xff, 0x00, 0x00, 0x00, 0x01,
  0x10, 0x00, 0x00, 0x00, 0x10, 0x00, 0x00, 0x00, 0x07, 0x00, 0x00, 0x00,
  0x28, 0x00, 0x00, 0x00, 0xf4, 0xfd, 0xff, 0xff, 0x19, 0x00, 0x00, 0x00,
  0x73, 0x65, 0x71, 0x75, 0x65, 0x6e, 0x74, 0x69, 0x61, 0x6c, 0x2f, 0x64,
  0x65, 0x6e, 0x73, 0x65, 0x5f, 0x32, 0x2f, 0x4d, 0x61, 0x74, 0x4d, 0x75,
  0x6c, 0x00, 0x00, 0x00, 0x02, 0x00, 0x00, 0x00, 0x01, 0x00, 0x00, 0x00,
  0x08, 0x00, 0x00, 0x00, 0xce, 0xfe, 0xff, 0xff, 0x00, 0x00, 0x00, 0x01,
  0x10, 0x00, 0x00, 0x00, 0x10, 0x00, 0x00, 0x00, 0x06, 0x00, 0x00, 0x00,
  0x28, 0x00, 0x00, 0x00, 0x3c, 0xfe, 0xff, 0xff, 0x19, 0x00, 0x00, 0x00,
  0x73, 0x65, 0x71, 0x75, 0x65, 0x6e, 0x74, 0x69, 0x61, 0x6c, 0x2f, 0x64,
  0x65, 0x6e, 0x73, 0x65, 0x5f, 0x31, 0x2f, 0x4d, 0x61, 0x74, 0x4d, 0x75,
  0x6c, 0x00, 0x00, 0x00, 0x02, 0x00, 0x00, 0x00, 0x08, 0x00, 0x00, 0x00,
  0x10, 0x00, 0x00, 0x00, 0x16, 0xff, 0xff, 0xff, 0x00, 0x00, 0x00, 0x01,
  0x10, 0x00, 0x00, 0x00, 0x10, 0x00, 0x00, 0x00, 0x05, 0x00, 0x00, 0x00,
  0x24, 0x00, 0x00, 0x00, 0x84, 0xfe, 0xff, 0xff, 0x17, 0x00, 0x00, 0x00,
  0x73, 0x65, 0x71, 0x75, 0x65, 0x6e, 0x74, 0x69, 0x61, 0x6c, 0x2f, 0x64,
  0x65, 0x6e, 0x73, 0x65, 0x2f, 0x4d, 0x61, 0x74, 0x4d, 0x75, 0x6c, 0x00,
  0x02, 0x00, 0x00, 0x00, 0x10, 0x00, 0x00, 0x00, 0x0a, 0x00, 0x00, 0x00,
  0x5a, 0xff, 0xff, 0xff, 0x00, 0x00, 0x00, 0x01, 0x10, 0x00, 0x00, 0x00,
  0x10, 0x00, 0x00, 0x00, 0x04, 0x00, 0x00, 0x00, 0x34, 0x00, 0x00, 0x00,
  0xc8, 0xfe, 0xff, 0xff, 0x27, 0x00, 0x00, 0x00, 0x73, 0x65, 0x71, 0x75,
  0x65, 0x6e, 0x74, 0x69, 0x61, 0x6c, 0x2f, 0x64, 0x65, 0x6e, 0x73, 0x65,
  0x2f, 0x42, 0x69, 0x61, 0x73, 0x41, 0x64, 0x64, 0x2f, 0x52, 0x65, 0x61,
  0x64, 0x56, 0x61, 0x72, 0x69, 0x61, 0x62, 0x6c, 0x65, 0x4f, 0x70, 0x00,
  0x01, 0x00, 0x00, 0x00, 0x10, 0x00, 0x00, 0x00, 0xaa, 0xff, 0xff, 0xff,
  0x00, 0x00, 0x00, 0x01, 0x10, 0x00, 0x00, 0x00, 0x10, 0x00, 0x00, 0x00,
  0x03, 0x00, 0x00, 0x00, 0x38, 0x00, 0x00, 0x00, 0x18, 0xff, 0xff, 0xff,
  0x29, 0x00, 0x00, 0x00, 0x73, 0x65, 0x71, 0x75, 0x65, 0x6e, 0x74, 0x69,
  0x61, 0x6c, 0x2f, 0x64, 0x65, 0x6e, 0x73, 0x65, 0x5f, 0x32, 0x2f, 0x42,
  0x69, 0x61, 0x73, 0x41, 0x64, 0x64, 0x2f, 0x52, 0x65, 0x61, 0x64, 0x56,
  0x61, 0x72, 0x69, 0x61, 0x62, 0x6c, 0x65, 0x4f, 0x70, 0x00, 0x00, 0x00,
  0x01, 0x00, 0x00, 0x00, 0x01, 0x00, 0x00, 0x00, 0x00, 0x00, 0x16, 0x00,
  0x18, 0x00, 0x14, 0x00, 0x00, 0x00, 0x10, 0x00, 0x0c, 0x00, 0x08, 0x00,
  0x00, 0x00, 0x00, 0x00, 0x00, 0x00, 0x07, 0x00, 0x16, 0x00, 0x00, 0x00,
  0x00, 0x00, 0x00, 0x01, 0x10, 0x00, 0x00, 0x00, 0x10, 0x00, 0x00, 0x00,
  0x02, 0x00, 0x00, 0x00, 0x38, 0x00, 0x00, 0x00, 0x84, 0xff, 0xff, 0xff,
  0x29, 0x00, 0x00, 0x00, 0x73, 0x65, 0x71, 0x75, 0x65, 0x6e, 0x74, 0x69,
  0x61, 0x6c, 0x2f, 0x64, 0x65, 0x6e, 0x73, 0x65, 0x5f, 0x31, 0x2f, 0x42,
  0x69, 0x61, 0x73, 0x41, 0x64, 0x64, 0x2f, 0x52, 0x65, 0x61, 0x64, 0x56,
  0x61, 0x72, 0x69, 0x61, 0x62, 0x6c, 0x65, 0x4f, 0x70, 0x00, 0x00, 0x00,
  0x01, 0x00, 0x00, 0x00, 0x08, 0x00, 0x00, 0x00, 0x00, 0x00, 0x16, 0x00,
  0x1c, 0x00, 0x18, 0x00, 0x00, 0x00, 0x14, 0x00, 0x10, 0x00, 0x0c, 0x00,
  0x00, 0x00, 0x00, 0x00, 0x08, 0x00, 0x07, 0x00, 0x16, 0x00, 0x00, 0x00,
  0x00, 0x00, 0x00, 0x01, 0x14, 0x00, 0x00, 0x00, 0x20, 0x00, 0x00, 0x00,
  0x20, 0x00, 0x00, 0x00, 0x01, 0x00, 0x00, 0x00, 0x3c, 0x00, 0x00, 0x00,
  0x02, 0x00, 0x00, 0x00, 0xff, 0xff, 0xff, 0xff, 0x0a, 0x00, 0x00, 0x00,
  0x04, 0x00, 0x04, 0x00, 0x04, 0x00, 0x00, 0x00, 0x1d, 0x00, 0x00, 0x00,
  0x73, 0x65, 0x72, 0x76, 0x69, 0x6e, 0x67, 0x5f, 0x64, 0x65, 0x66, 0x61,
  0x75, 0x6c, 0x74, 0x5f, 0x64, 0x65, 0x6e, 0x73, 0x65, 0x5f, 0x69, 0x6e,
  0x70, 0x75, 0x74, 0x3a, 0x30, 0x00, 0x00, 0x00, 0x02, 0x00, 0x00, 0x00,
  0x01, 0x00, 0x00, 0x00, 0x0a, 0x00, 0x00, 0x00, 0x02, 0x00, 0x00, 0x00,
  0x20, 0x00, 0x00, 0x00, 0x04, 0x00, 0x00, 0x00, 0xf4, 0xff, 0xff, 0xff,
  0x0e, 0x00, 0x00, 0x00, 0x00, 0x00, 0x00, 0x0e, 0x0c, 0x00, 0x0c, 0x00,
  0x0b, 0x00, 0x00, 0x00, 0x00, 0x00, 0x04, 0x00, 0x0c, 0x00, 0x00, 0x00,
  0x09, 0x00, 0x00, 0x00, 0x00, 0x00, 0x00, 0x09
};
unsigned int model_tflite_len = 3344;
